5D90181011200780014011600B600D7FEA3FEA9
7B20099FD5F016B00D00144FE5300BBFDBB00CA
7C1FDA9FE34006B00D400EFFC94FED4004B0098
6AB007EFED3FE0D01E0FECC0098012301F2FE32
06DFEDB0022005901A30233FE18FFDC01A6008C
3540180FD90003F016A00ECFE2DFC74FE5AFECC
643FE8E014D01E300FC0037FF060020007702CD
086FFDF00C9FBAB01200078FFD8FEDFFF37FEAF
10E0047FF82FE6AFE1EFE2C022F00F5FEFF013A
50BFF4EFFDFFEE3FCA001CA0220FED200FCFE15
094FDD300A40018FF55024DFD7C01F201E1FF7D
6B8FC620198FE03FF8AFE40FF170064FDDB0222
65BFD470390FF8FF96E015A009DFFB2048FFE4E
67B0059FEDB026701430074FF9DFD91FFD30012
0A0FF32000FFC2FFEACFE24022901D2013DFE16
196FF6302DDFC74FF21FCA70003FF49FD93FFE1
0EB01F4FD5B00D7006B0048FF96FF03FD560117
749004AFDD300FF0043FE03000AFEFF019900B4
074FF0F0135021BFDADFF71FE190011FFAB0137
79BFE5CFF6F023CFE8D0198FD6EFF250090FFED
7E90130FF4300B700CCFEDE0054FFBB0048FFEC
5FE00C6FD440274FF4BFE3DFFB4009FFCCD0152
75100E201DFFF31FEB5003FFC1E0074FFD4FEE3
674FE53FEA8FE2F0190FEEC0000013100670067
64E00070095FF0100DEFF6F0171021AFFB1009B
07EFF5F016C0033FF5400BAFE8C011F01200068
24FFF610094FD2A00E90032016FFC9900F4024F
17DFC6B0079FE9FFEBB019DFE6A013BFE9EFDEA
6F6FF02005BFCDD016BFF1E00CFFFA9021DFFB3
6F1023F00AFFEF6FD0AFFC8FDDB015A0092FCC6
031FFE1FFBE011C0181FFB00066FC5AFF5DFDF0
507FDC9FD4C01620169FC8900E6016800EDFD9B

