F61FE0FFE940105FFC1
E84FC7BFD7F0266FBA6
E54FDB2FE4B024500B4
CC20102009BFED802AF
033FF410178FED3004E
D490107FE9600C00002
18CFFC7FEEA002FFD2D
F1BFFF5FE9E000F0112
007FF32FE75008C0007
E87FD7CFEB1FECB011A
DCC04A2FD57FE1EFCFA
C0A015F00AAFF3BFF86
FF2FEAF0032FF09FF9A
EF4039600A6FC4FFCB8
FC4FF280464FEE70141
266FF18FD9FFDD800E3
FA4FD370191FDC6FE4B
ECAFDE30197FF3FFC66
C34FD4CFB92003AFFFD
0A0FF0DFC580252FD3A
24801C9FF4302F9015C
E90FE490094FE16FE8B
07C01F5FDA7FE1FFFFD
143FF900078FFFBFEC2
EF900C3FF3CFE220192
F1F006AFFB701360263
DE30087FDD90303FF87
E1BFFADFDC0FF87039C
E0D012C003B01CFFF5C
16EFE050226FFF3FFF7
D76FEF6026D012F0019
18A0132015D017DFFF7
E48011AFE5801AF01E8
CF400EBFDD001B20213
0BD01290088FF5E019E
285FF44FED5FCDEFF2F
E9B012A0031FE8AFDA7
152009E009DFDE5FEC7
F73FCDE014DFE800001
1DC019FFFE30019FD1B
0A40007FD2D0006FDB8
DD200B50344FD65FC8C
FD7014300CBFF58FF37
FA2FDD6FDA8FD480042
053FEFDFF0502DD029B
CB700E40414FD9E011B
BB402E8FD68FF54004B
0F4FF5701A5FF26FF27
24CFF6D012A00A400E5
1B5014E0123FFD10163
E71FDDF0181025101D7
DAE01AEFBDFFDDA0232
DE6FC600057FFBFFF12
F8E006B0099016B0188
F73FF11FF15FE56010B
07BFDE0FEAEFF8FFE25
F40FF7700110286FEC3
08AFF08009FFED5FF65
DE4FB51FDB0FEA9000B
F7B007A00E1FE0BFF94
EC1FFFEFFEE0048011E
F5B0328FEF7FF29FFE7
1D500DCFD6EFD430102
DAA005CFFA6FE7EFDD4

