101FFEDFF6B011DFF4B
052FC83FCD50039FECD
1A4FE61FFA2FE95FE9C
02EFD66FF2DFF590060
72F02A901C9FFA0006E
6FDFD96FD9D012BFECB
7A302CFFFECFD49FF01
72AFD3E016900D5FFFE
0B300DFFF47FE8B009C
1D9013CFFB6FFD3FF0B
7BAFCB5003C00E701D9
67E0143FE99FE61000A
788021801C5FF6A0072
74AFFC0FBC2FE9C003C
6C80247FF7FFF76FFEA
6F0FF30FDBE01D90020
722FFB1FFE401B20199
653FD0C008A005BFE5F
1E801C500AFFE3C004C
086007DFE39033CFDC5
08C0186001FFF3E02DD
598FDD100F5FF5EFDCB
764FED0FFB1FFC70069
6B601080034FDFE00F3
05A0231FF0502530096
12D014AFE97FD61FFE4
7AFFDF001C1FDF00007
43802AAFE690153FEA4
720FEFF0097011FFEEB
054FFD201CF00D3FE76
132FD480118FF2EFE32
102FFE3FF1700BBFEA6
692FF4DFEFBFF5BFFFF
53D00BAFFA10121FFBB
095FFB00171FED0FFBD
282FEFC00E9FD92FEF7
09CFFAAFF6DFC60FDFE
0B50277FE570115FF49
753FE9BFF6EFC8200D9
52101E0FEE8FFB3FF8C
62A012A0160FFD8FF32
176FE5C007AFFD9FBE5
0AD0110FCFC0091FE19
19201880002FEC7006C
5F600F2FE3DFFF40214
6B9000902E9FE7CFF3B
00EFF12026EFEFD01E0
26F00FCFDEB004800B3
122FE260022001FFF26
0DBFF31018D0267009D
724FDDCFEF7FFF3FEBA
514FEADFFA8017600B6
79EFDC4FF00FF2FFEAB
2510014FF7EFFBEFDE8
614008FFD64FD770278
726FD2E012500040136
529FF74FEE9FF76FF86
6B8FE2D02330233FC37
149000FFFC701EFFFDC
647008900B7FDE801F7
1080139FF90FF07022E
712008AFECDFEDFFFA5
7B101C8FE2F000202A9
6A4FDCD01920258011B

